00001b2
ffffd77
ffffed3
ffffc95
ffffc91
ffffbaf
ffffac7
ffffa06
ffff96b
ffff800
ffffa74
ffffbd6
ffffcaa
fffff91
ffffbad
ffffbf6
ffffe6a
ffffd51
fffff11
fffff12
0000067
ffffe3b
ffffe33
fffff16
ffffd60
ffffb6e
ffffc91
ffffc5d
ffffd6d
ffffd8f
ffffe3e
000008a
00000d6
0000317
00001f0
0000111
000007c
fffff8f
ffff841
ffffe27
ffffdcf
ffffd13
ffffdc2
ffffdb9
ffffecb
0000114
00002ad
0000532
0000100
00000ab
0000143
ffff991
ffffd95
ffffbc4
ffffdf6
fffff6b
ffffd9f
00000ee
0000013
fffffb4
0000233
000033b
0000073
000025b
ffffbd2
ffffc0e
ffffe6d
fffff67
ffffe7e
00000a1
fffff77
ffffa91
ffff90a
ffffcdb
0000151
0000137
000056d
00001a1
ffffb59
fffff69
000019e
00000b4
0000163
ffffea4
ffff79b
ffff705
ffffc5b
0000010
0000216
00003eb
0000350
ffff874
fffff94
0000153
00002dd
0000341
ffffeb7
ffff517
ffff8e4
ffffe80
00000d5
000000a
0000329
0000180
ffff907
fffffbe
fffffc5
0000176
000038c
ffffd9b
ffff88f
ffffdc0
00001dd
fffffdf
fffffcb
000014d
ffffc9e
ffffa69
ffffee3
ffffe23
000017d
0000312
0000157
ffffee8
000000f
fffffb8
fffff5a
fffff94
ffffe74
ffffceb
ffffbed
fffff7b
fffff9c
ffffffe
0000290
00001cc
0000242
0000039
fffff3f
ffffe56
000003e
fffffda
fffff30
ffffc05
ffffe11
fffffd3
000004d
0000303
0000363
00002f9
fffffaf
ffffefb
ffffcf4
ffffcf2
ffffdce
ffffda5
ffffdf6
ffffb21
ffffa93
ffff93b
ffffa30
ffffc99
ffffa7c
ffff981
ffff901
ffff6d1
ffff9e0
ffffb99
ffffdc1
00001e8
fffff43
ffffe61
ffffd68
ffff9d3
ffffc86
fffffc0
00000d4
ffffb63
ffff9f6
ffff7ec
ffffa65
ffffc81
000019f
0000140
fffff87
ffffc7b
ffffe85
fffff8d
0000395
000009b
fffff02
00000d8
00001e8
0000115
ffffc7f
000001d
ffffff3
ffffda6
ffffa95
ffffc4e
fffffd5
ffffeb5
ffffd8a
ffffd70
000011c
0000211
ffffe36
ffffa0c
ffffe4e
ffffe5d
ffffddd
ffffb11
ffffc5b
ffffd2c
ffffd64
ffffeaa
ffffc9c
ffffe64
ffffe7d
ffffbdf
ffff567
ffffe18
ffffca5
ffffd92
ffffe41
ffffc9a
ffffd37
00004fe
000048a
ffffe1b
ffffbf4
ffffba3
ffff887
ffff426
ffffdef
ffffd25
ffffdf5
00000a7
ffffae0
ffffd25
0000701
0000588
ffffe55
ffffcc2
ffffc77
ffffa2b
ffff9d5
0000077
fffff2a
ffffe2e
fffff4a
ffff740
fffff7b
000059b
00005e3
ffffa65
ffffb96
ffffc59
ffffe88
ffffbf3
0000225
ffffacf
ffffbc9
ffffdee
ffffa0d
00000ba
0000507
00002d9
ffff7c9
ffff977
ffffc10
ffffdd6
ffffdd4
ffffd91
ffff656
ffff8c6
ffffe62
ffffc13
000020f
00005cd
fffff0d
ffff985
ffffe41
0000011
fffffba
fffff83
ffffd47
ffffb26
ffffdf3
fffff30
0000003
00001ab
000034d
ffffc6f
ffffef9
00001a6
000009e
ffffe7b
fffff31
ffffebf
000017e
00001df
0000238
fffff6c
ffffcb6
ffffd08
fffff30
0000224
0000288
0000003
ffffdb3
0000096
ffffe22
0000220
0000340
000022d
fffff4f
ffffbbb
fffffa1
0000247
000027d
0000181
ffffc5b
ffffd8a
fffffd6
ffffd0f
ffffbc9
ffffc37
ffffa07
ffff7e6
ffff878
ffff966
ffffa4b
ffffb56
ffffd9d
ffffca7
ffffdbc
fffff0b
fffff6e
ffffe32
ffffda0
000012d
0000170
0000153
fffffcf
fffff6f
ffffee2
ffffba3
ffffb84
ffffcc1
000009a
ffffec5
fffffe7
000003d
0000245
00003ba
00001c8
00002a7
00001da
0000190
ffffee9
ffffdca
ffffc8d
ffffa3f
0000120
000021d
fffff94
0000029
fffff8b
00001b2
000018c
0000126
000001d
0000036
ffffe57
ffffbfa
ffff6f0
fffff84
0000123
00001da
0000080
0000176
00000d5
00000b6
00000ed
0000051
fffffe7
ffffe60
ffffcc7
ffff493
fffffcc
00001bd
000008f
ffffdd7
ffffec4
ffffdf7
ffffd80
ffffef2
0000081
fffff5d
fffffed
ffffca0
ffffb5e
ffffe9b
ffffd9b
ffff8a0
ffffa49
ffff9f6
ffff809
ffff989
ffffbf2
ffffd5e
fffffb1
fffffc7
ffffbe1
00000ee
ffffcb2
ffffaa7
ffffa93
ffffb7d
ffffdf8
ffffd24
ffffd76
ffffd0f
ffffdc8
ffffeab
ffffc52
ffffea1
0000681
00002db
0000087
fffffe3
fffff32
000007a
00004bd
00002b5
0000054
ffffea9
fffffef
ffffde7
00000f0
00007fa
000035a
000038a
00002c8
000017b
0000198
000035a
0000366
0000139
fffff26
fffff74
000002f
00003ba
00007df
fffff30
00002f3
000028f
000013c
0000148
0000308
0000077
00000d3
0000210
0000132
000017c
00001d0
00003e4
00001a8
000018b
0000291
000020b
00002ef
0000039
ffffda1
ffffe55
0000181
00002f5
000021d
0000194
00003bf
ffffe6a
fffffe4
ffffe62
00000fb
0000027
ffffe85
fffff19
ffffd4b
00000d0
00000e7
000016f
00001be
0000181
ffffba2
ffffa50
ffff7a1
ffff7a9
ffff8a0
ffffc51
ffffe77
ffffcee
ffffd04
ffffba6
ffffbf5
fffff0a
00000d0
ffffe24
000011c
00000ad
000000b
0000151
000017c
0000397
00002d6
000037e
000016e
fffffc2
ffff974
ffffd59
00000b3
00002be
00001ca
00001cf
0000309
00000b7
00000b1
0000066
000000f
ffffe94
ffffc3e
ffff9a9
ffff7b1
000010c
00002ff
00002ae
00000c9
00000d5
0000222
0000252
00000a6
0000087
fffff22
ffffe46
ffffa8f
ffff8ae
0000042
0000492
0000261
0000115
0000004
fffff5e
00000d4
0000168
00000ec
ffffff2
fffff62
ffffbf3
ffff4b0
00001e5
00002c9
00000b7
ffffe04
ffffbb8
ffffaf2
0000145
00003a7
00001f3
00001b1
0000160
ffffbd2
ffff15d
00000cd
0000036
ffffc0c
ffffc2d
ffffa35
ffffd5e
0000245
00001a0
00000f4
00000b4
ffffdb7
ffff987
ffff6f2
000010a
ffffcbe
ffffb14
ffffd3a
fffffbd
0000279
00002ea
fffffeb
ffffe9a
ffffe71
ffffba8
ffffbb8
ffffc4c
00004a5
0000170
ffffc8d
ffffc7d
ffffce5
ffffe5f
ffffdc3
ffffefc
00000e2
00000d4
0000023
ffffee1
ffffe18
0000729
00003b3
0000125
ffffc4d
ffffad3
ffffc09
ffffc01
fffff13
0000110
0000140
0000113
0000160
ffff946
00004e4
000049b
0000303
0000068
ffffd69
ffffbb0
ffffcb3
0000160
00002be
0000244
fffff2c
ffffcec
ffff958
00004d4
000037d
0000257
000024c
000007b
ffffeab
fffff9d
00000cb
0000059
00000fb
ffffe0d
ffffac4
ffff947
0000465
00001ac
0000223
000014b
00001ae
0000005
000004c
ffffed3
ffffdbf
fffff21
ffffbd0
ffffaeb
ffffc54
0000220
000042c
000046a
00004ad
000046d
000042f
0000190
fffffb3
fffff41
ffffc17
ffffc5f
ffffe29
ffffdd4
ffffddc
ffffccb
ffffc04
ffffa9a
ffff528
ffff403
ffff407
ffff810
ffff91f
ffffa61
ffffb11
ffffcf0
ffffcf3
ffffe2d
00000a4
fffff24
ffffc46
ffffc7d
ffff9d0
ffffbfa
fffff18
00000bc
000008a
0000134
0000299
fffff99
fffff80
00001b8
0000251
00000d9
ffffec3
ffffe97
ffffeb6
ffffd85
fffff34
fffff5c
000013d
0000566
000022b
ffffcdd
0000091
ffffe17
ffffde1
ffffdd4
ffffc9e
ffff8bc
ffff883
ffffdde
ffffe77
00000e8
0000036
ffffead
ffffb49
ffffcb5
ffffd5d
fffff05
fffff9b
00000e6
ffff978
ffffb3d
00000da
ffffdf2
ffffcca
ffffc74
ffffa5e
ffffab1
ffffbdf
ffffecb
000024a
0000499
00004ac
ffff9e1
00001b5
0000286
fffff0d
ffffe81
ffffb97
ffff82a
ffffc6e
fffff48
0000485
0000397
000050d
00003b0
ffffeb3
00001c0
000035b
0000251
0000172
fffffc7
ffffc8a
ffffe2f
00000b3
00001e1
000032c
00002ea
00000d4
00002a6
0000631
000040a
0000203
000013e
ffffd2c
ffff91f
ffffb66
ffffdcd
fffffd0
00000e0
ffffe9d
ffffe97
0000491
00004a0
0000022
ffffcc8
ffffe45
ffffb2f
ffff93d
ffffb9d
ffffbb8
ffff949
ffffa1e
ffff99d
ffffbf0
0000078
ffffedd
ffffd02
ffffca0
ffffb01
ffff9c1
ffff8d1
ffffc10
ffffc02
ffffb34
ffffc0b
ffffc49
ffffc7a
ffffe35
ffffead
ffffe12
fffff77
000002e
ffffd69
ffffcfd
ffffddb
ffffbb9
ffffe12
ffffe76
000003e
0000003
ffffe6f
000005f
0000158
0000331
00001a4
00000a9
ffffe7b
fffff22
ffffc97
ffffd84
ffffe5e
ffffceb
ffffa67
ffffb88
ffffa17
ffffb02
ffffa21
ffffd2f
fffff36
ffffd9a
000009a
fffffeb
ffffdb0
ffffc66
ffffbd7
ffffbc9
ffffc13
fffff04
000008b
0000050
00000db
fffff87
ffffeba
ffffd87
ffff9c1
ffffae5
ffffd35
ffffdd9
ffffc30
ffffed7
ffffe7c
00001ec
0000062
00000d8
00001ae
0000358
ffffbaa
ffffb22
ffffe93
fffff90
000015f
00000f5
fffff65
000002f
00001c8
00001bd
00000d2
00000bd
000061f
ffff9a6
ffff8a5
ffffc5d
ffffeaa
0000141
fffffa6
fffff72
ffffd97
fffff71
0000210
0000243
00005e0
00008c0
ffff6ea
ffff9d0
fffff42
00000a4
00001fe
00002dd
fffffcd
ffffb03
ffffc24
ffffe3c
0000085
0000809
0000e38
ffffa7e
fffff97
00001c8
fffff9a
00002eb
00004f4
00001a6
ffffd5c
ffffb4e
ffffb5a
ffff8cb
ffffcfb
0000680
ffffdbc
ffffec8
fffffa2
fffffa9
000035c
0000548
00001fc
ffffb1b
ffffde3
ffffe75
ffffc17
ffff926
ffffbd5
ffffe4a
ffffd11
ffffcbd
ffffd13
ffffeec
ffffe8f
ffffc6c
ffffb1c
ffffdf4
ffffff5
ffffee0
ffffebe
fffff33
fffff54
000017b
00000dd
ffffc91
ffffbd2
ffffc28
ffffda8
ffffff4
0000085
0000106
fffffb3
0000101
000003b
fffffc1
000018f
00003e6
00000fc
ffffff1
fffff82
fffff95
0000188
fffffb1
0000104
0000102
0000220
fffffbe
fffff84
fffff97
fffff28
0000325
000023f
00000b4
0000005
00001c3
0000124
000003d
00001c7
0000326
fffff53
fffff3a
fffff5f
ffffbe1
fffff40
fffffc3
00001bc
00001be
00000df
00000ba
fffff86
0000145
0000105
ffffeeb
00000eb
fffff8b
fffff0a
ffffe04
0000113
0000257
00001b7
0000001
fffff85
00000fa
00001de
0000128
0000187
fffff1c
00000c8
00003c2
0000499
00003a2
0000447
0000382
0000143
000026f
0000292
00005a2
000039c
000023d
ffffed4
fffff12
0000134
00000f9
0000107
ffffe9c
000002b
fffffc3
0000408
0000479
0000589
000052f
000019e
ffffbd6
ffffec7
ffffc90
ffffe93
ffffdbc
ffffb62
ffffe9b
ffffe7a
fffff73
00000f9
00001ab
0000089
fffff8c
ffffa80
ffffb72
ffffc72
ffffd28
ffffd6a
ffffc29
ffffdf0
ffffcd3
ffffb1d
ffffb6d
ffffe2c
ffffc86
ffffb9c
ffff8ac
ffffaa8
ffffd6d
fffffab
ffffd29
fffff94
ffffe0e
ffff895
ffff999
ffffb3c
ffffd75
ffffc2e
ffff840
ffff9cb
ffffc70
000011a
ffffff2
00000a9
00000d0
ffffc9f
ffffad4
ffffd51
ffffdc2
0000337
000046d
ffffd44
ffffb6c
fffff26
00001bd
0000221
00000d9
0000041
fffff92
0000018
ffffe43
ffffe77
00003b1
000047e
000004b
ffffac0
ffffd7e
fffff3b
0000279
0000350
000025d
0000259
fffff46
ffffdc8
ffffff8
0000076
0000181
ffffd9b
ffff930
ffffaee
ffffdd2
000014b
00004df
000037c
0000017
ffffdd6
0000118
0000001
fffff32
ffffe2f
ffffd38
ffffa8c
ffff7c3
ffffc00
ffffef9
000041d
00004e2
00001c5
0000389
000038e
00001cf
0000021
ffffe04
ffffd84
ffffafa
ffff95c
ffff9de
ffffc1f
0000121
000048b
0000419
00002ac
00001e6
fffff3c
fffff10
ffffd01
ffffca4
ffffe57
ffff928
ffff973
ffffc2a
ffffbf5
ffffcda
ffffdac
ffffd0f
ffffd20
ffffdf8
ffffd7b
ffffa45
ffffc04
ffffe91
ffffd5e
ffffa37
ffff7eb
ffff750
ffff83d
ffff903
ffff81f
ffff9f6
ffffa8f
ffffaed
ffffd33
ffffc89
fffff50
ffffee4
ffffc65
ffff9a9
ffff73a
ffff6ae
ffff7a8
ffff9cf
ffffa14
ffffd3a
ffffaf1
ffffd8c
0000053
ffffe79
ffffe98
ffffed2
ffffd5d
ffffaf8
ffffbf7
ffffae7
ffffb1d
ffffa40
ffff8fc
ffff7ef
ffff782
ffffa11
00001ec
00000c5
00001e5
0000073
0000140
fffff38
ffffcec
ffffc6f
ffffdc9
ffffc3f
ffffb85
ffffb90
ffff89c
00003a5
00002ab
00002c6
00002a4
0000438
0000279
00001ca
00002ac
00003bc
0000185
00000d6
ffffd0b
ffff8fc
0000513
0000309
00000b5
fffff5a
000017d
0000152
00004aa
0000678
000041d
0000140
000001f
ffffbc7
ffff6d4
00005ca
00003af
fffffe5
0000008
fffff87
ffffda6
ffffef5
0000409
0000480
0000117
fffff03
ffffc9b
ffff9e4
0000675
00002e6
0000145
00000ee
ffffb1d
ffff3ad
ffff7dc
0000141
0000177
000015c
00001d9
ffffe93
ffffe64
000016d
000017c
0000042
000005f
ffffe09
ffff863
ffffcbb
000014f
000028d
0000468
00001fd
000002c
ffffc04
fffff18
fffff4e
ffffd5c
ffffd50
ffffc6b
ffffdea
000011b
00000f9
000003b
fffff36
ffffe9a
ffff989
ffffaea
fffffe7
ffffcba
ffff9ee
ffff9eb
ffffc8f
ffffec4
fffff96
ffffd08
ffffc4a
ffffb23
ffff896
ffff79d
ffffaf9
ffffab3
fffff1a
000001d
ffffe97
ffffdfa
fffff9b
ffffed1
ffffc39
ffffb3a
ffff948
ffff9d6
ffff6c1
ffffc45
ffffed0
000015f
00002f2
0000223
fffff73
fffffb3
fffff79
00000b5
ffffcca
ffffb15
ffffa68
ffff9e7
ffffc70
00001da
00003d2
0000478
0000382
00002ea
00002bb
00002ef
0000461
0000290
000017e
ffffe7a
fffff98
ffffcb9
ffffe4f
ffffd7a
ffffcf9
ffffcd8
ffffb5d
ffffa05
ffff908
ffff962
ffffb1c
ffffdab
ffffe35
fffff1c
ffffea3
ffffc78
ffffbff
ffffd99
ffffec4
fffff61
fffff74
000010e
fffff6c
fffffa9
fffff5c
ffffda6
ffffdf8
ffffe21
ffffd76
ffffc48
ffffdc3
ffffe20
fffff7e
fffffff
000029e
0000392
000022d
00000c3
00000a5
00001a4
0000192
ffffec3
ffffd4b
fffff17
fffff1d
00000a8
0000039
ffffe9e
ffffdb5
0000017
00000e0
000008b
0000114
000019d
ffffcbd
fffff02
00001c9
000027d
000019a
0000122
ffffd97
ffffc52
ffffdda
00001f0
0000279
000002e
ffffe9d
ffffc53
fffffc0
00001b9
0000284
0000093
0000378
fffff93
fffff46
ffffff1
ffffffe
0000431
000027a
fffff65
ffffd5d
ffffddb
ffffe3e
ffffe5c
ffffbd5
00001dc
000033c
000006a
ffffe4e
ffffe76
fffffb6
fffffb8
ffffee7
ffffd48
ffff8fb
ffffb94
ffffc10
ffffe22
0000285
00001b4
fffff08
ffffe91
ffffb1e
ffffae0
ffffcd1
ffffda0
ffff994
ffffa9d
fffff09
00000e3
0000427
000032d
ffffdff
ffffe75
ffffd8f
ffffeca
ffffdb6
ffffe11
ffffced
ffff9a2
ffffebb
fffff54
000000a
fffff81
ffffd12
ffffcc1
ffffd17
fffff22
ffffe73
fffffb5
fffff16
ffffc7d
ffffabf
ffffe3c
00000e8
ffffff1
ffffe3b
ffffee7
0000020
ffffff5
ffffee0
00000f2
fffff95
fffff52
ffff843
ffffc87
ffffa14
ffffdc8
fffff3a
0000093
0000377
000045f
0000134
0000157
fffffe9
0000076
ffffe40
ffffb5c
ffffdf5
ffff6ac
ffff777
ffffa4d
ffffc93
ffffc40
ffffdf1
ffffd96
ffffefc
ffffff1
ffffc5a
ffffc02
ffffa71
ffffeab
ffffdc9
ffffd56
ffffc71
ffff788
ffff71c
ffff41c
ffff614
ffff8a7
ffffc8c
ffffb70
ffffcde
ffffe24
ffffe49
ffffc82
ffff862
ffffad4
ffffe6e
0000003
ffffae0
ffff982
ffff6ca
ffffa79
ffff977
ffff84a
ffffa4c
ffff9fe
ffff74b
ffffa78
ffffcd4
ffffee6
fffff05
000015c
00001b5
00000c7
ffffdd5
ffffd45
ffff7e2
ffff8ad
ffff94c
ffff9a9
ffffbb8
ffffc78
ffffe33
000024f
0000553
000050c
00001d5
fffff46
ffffcd7
ffffa42
ffff7cb
ffff895
ffffd6c
fffff50
0000017
000034a
0000055
fffff01
ffffc66
ffffea3
ffffefd
ffffeb2
ffffa79
ffff596
ffffbab
00000d4
0000400
00002b8
00001eb
ffffddc
ffffdd0
00001c4
000045c
00003f4
0000440
ffffea2
ffff64e
ffffda5
0000358
00002c1
00000f7
0000044
ffffd12
00002fa
000028f
00003dc
000023a
000004f
ffffc16
ffff529
ffffef5
00000fd
fffffcd
00000b0
fffffea
ffffea1
ffffe24
0000097
0000290
ffffde0
ffffd3a
ffff9f4
ffff4ba
ffffd65
ffffde6
ffffe95
0000138
000017b
ffffd0d
ffffe6d
0000136
fffffe1
ffffd42
ffffc05
ffff82a
ffff647
ffff90e
ffffc16
ffffcf7
ffffcdc
ffffa9b
ffffb45
fffff25
fffff20
ffffd12
ffffd0a
ffffd16
ffffa68
ffffccd
ffffb2e
ffffe58
ffffd9b
ffffeaf
ffffcbb
ffffcd8
ffffde6
ffffd0b
ffffd67
ffffcb4
ffffe77
fffffce
0000083
ffffddc
ffffef1
000007a
fffff2a
fffffed
fffff20
ffffd25
ffffbf3
ffffec5
0000046
0000288
000038d
000010e
ffffc4e
0000243
000034f
0000450
00002fe
0000246
0000230
00001ea
00002c4
00003a7
0000329
0000110
ffffe51
